/*
 * Copyright NXP 2022
 *
 * SPDX-License-Identifier: BSD-3-Clause
 */

#ifndef CONV2D_MODEL_H
#define CONV2D_MODEL_H

unsigned char input_data[8][8][3] = {0, 1, 2, 3, 4, 5, 6, 7, 8, 9, 10, 11, 12, 13, 14, 15, 16, 17, 18, 19, 20, 21, 22, 23, 24, 25, 26, 27, 28, 29, 30, 31, 32, 33, 34, 35, 36, 37, 38, 39, 40, 41, 42, 43, 44, 45, 46, 47, 48, 49, 50, 51, 52, 53, 54, 55, 56, 57, 58, 59, 60, 61, 62, 63, 64, 65, 66, 67, 68, 69, 70, 71, 72, 73, 74, 75, 76, 77, 78, 79, 80, 81, 82, 83, 84, 85, 86, 87, 88, 89, 90, 91, 92, 93, 94, 95, 96, 97, 98, 99, 0, 1, 2, 3, 4, 5, 6, 7, 8, 9, 10, 11, 12, 13, 14, 15, 16, 17, 18, 19, 20, 21, 22, 23, 24, 25, 26, 27, 28, 29, 30, 31, 32, 33, 34, 35, 36, 37, 38, 39, 40, 41, 42, 43, 44, 45, 46, 47, 48, 49, 50, 51, 52, 53, 54, 55, 56, 57, 58, 59, 60, 61, 62, 63, 64, 65, 66, 67, 68, 69, 70, 71, 72, 73, 74, 75, 76, 77, 78, 79, 80, 81, 82, 83, 84, 85, 86, 87, 88, 89, 90, 91
};

unsigned char model_data[1552] = {
    0x1c, 0x00, 0x00, 0x00, 0x54, 0x46, 0x4c, 0x33, 0x00, 0x00, 0x12, 0x00, 0x1c, 0x00, 0x18, 0x00, 
    0x14, 0x00, 0x10, 0x00, 0x0c, 0x00, 0x08, 0x00, 0x00, 0x00, 0x04, 0x00, 0x12, 0x00, 0x00, 0x00, 
    0x18, 0x00, 0x00, 0x00, 0x74, 0x00, 0x00, 0x00, 0xa4, 0x05, 0x00, 0x00, 0x28, 0x03, 0x00, 0x00, 
    0xb0, 0x05, 0x00, 0x00, 0x03, 0x00, 0x00, 0x00, 0x02, 0x00, 0x00, 0x00, 0x38, 0x00, 0x00, 0x00, 
    0x04, 0x00, 0x00, 0x00, 0xd8, 0xff, 0xff, 0xff, 0x05, 0x00, 0x00, 0x00, 0x04, 0x00, 0x00, 0x00, 
    0x17, 0x00, 0x00, 0x00, 0x4f, 0x66, 0x66, 0x6c, 0x69, 0x6e, 0x65, 0x4d, 0x65, 0x6d, 0x6f, 0x72, 
    0x79, 0x41, 0x6c, 0x6c, 0x6f, 0x63, 0x61, 0x74, 0x69, 0x6f, 0x6e, 0x00, 0x08, 0x00, 0x0c, 0x00, 
    0x08, 0x00, 0x04, 0x00, 0x08, 0x00, 0x00, 0x00, 0x04, 0x00, 0x00, 0x00, 0x04, 0x00, 0x00, 0x00, 
    0x13, 0x00, 0x00, 0x00, 0x6d, 0x69, 0x6e, 0x5f, 0x72, 0x75, 0x6e, 0x74, 0x69, 0x6d, 0x65, 0x5f, 
    0x76, 0x65, 0x72, 0x73, 0x69, 0x6f, 0x6e, 0x00, 0x06, 0x00, 0x00, 0x00, 0xa8, 0x02, 0x00, 0x00, 
    0x98, 0x02, 0x00, 0x00, 0x30, 0x01, 0x00, 0x00, 0x5c, 0x00, 0x00, 0x00, 0x38, 0x00, 0x00, 0x00, 
    0x04, 0x00, 0x00, 0x00, 0x76, 0xfd, 0xff, 0xff, 0x04, 0x00, 0x00, 0x00, 0x24, 0x00, 0x00, 0x00, 
    0x00, 0x00, 0x00, 0x00, 0x01, 0x00, 0x00, 0x00, 0x06, 0x00, 0x00, 0x00, 0x00, 0x00, 0x00, 0x00, 
    0x50, 0x00, 0x00, 0x00, 0xff, 0xff, 0xff, 0xff, 0xff, 0xff, 0xff, 0xff, 0x00, 0x00, 0x00, 0x00, 
    0x00, 0x00, 0x00, 0x00, 0xa6, 0xfd, 0xff, 0xff, 0x04, 0x00, 0x00, 0x00, 0x10, 0x00, 0x00, 0x00, 
    0x31, 0x2e, 0x31, 0x34, 0x2e, 0x30, 0x00, 0x00, 0x00, 0x00, 0x00, 0x00, 0x00, 0x00, 0x00, 0x00, 
    0x00, 0x00, 0x00, 0x00, 0xc6, 0xfd, 0xff, 0xff, 0x04, 0x00, 0x00, 0x00, 0xc0, 0x00, 0x00, 0x00, 
    0x00, 0x00, 0x00, 0x00, 0x00, 0x00, 0x00, 0x00, 0x00, 0x00, 0x00, 0x00, 0x00, 0x00, 0x00, 0x00, 
    0x00, 0x00, 0x00, 0x00, 0x00, 0x00, 0x00, 0x00, 0x00, 0x00, 0x00, 0x00, 0x00, 0x00, 0x00, 0x00, 
    0x00, 0x00, 0x00, 0x00, 0x00, 0xd0, 0x7e, 0xd4, 0x5e, 0x27, 0x00, 0x00, 0x00, 0x00, 0x00, 0x28, 
    0xcc, 0x5e, 0x5f, 0x27, 0x00, 0x00, 0x00, 0x00, 0x00, 0x00, 0x00, 0x00, 0x00, 0x00, 0x00, 0x00, 
    0xab, 0x01, 0xd0, 0xf1, 0x8d, 0xe9, 0x0f, 0xfc, 0x49, 0x08, 0xf4, 0xaf, 0xff, 0xde, 0x2e, 0x9e, 
    0x4d, 0xfd, 0x9c, 0x6b, 0xdb, 0x3a, 0x1a, 0xea, 0x69, 0x19, 0xe9, 0xc8, 0xb8, 0x58, 0x08, 0xa8, 
    0xb7, 0x96, 0x86, 0xa6, 0xd5, 0xe9, 0xc0, 0xec, 0xbb, 0xf4, 0x60, 0x30, 0xc0, 0x16, 0x2e, 0x00, 
    0x05, 0xba, 0x97, 0xdf, 0x87, 0x80, 0x41, 0x3f, 0x68, 0x5e, 0x81, 0x02, 0x6b, 0x58, 0xac, 0x3b, 
    0xf0, 0x19, 0x0f, 0xf6, 0x02, 0x05, 0xf8, 0x85, 0x5d, 0x80, 0xbe, 0x40, 0xf5, 0x13, 0x58, 0x0d, 
    0x78, 0x80, 0x31, 0x39, 0x9c, 0x2b, 0x50, 0x40, 0x17, 0xf9, 0x8f, 0x02, 0x05, 0x0e, 0x14, 0xa4, 
    0x9a, 0x0d, 0x20, 0x0e, 0x1e, 0xb8, 0x40, 0x01, 0xfe, 0x26, 0xce, 0x8a, 0x02, 0x05, 0x06, 0xfe, 
    0x0b, 0x14, 0xf8, 0xff, 0x7f, 0xe8, 0xff, 0xff, 0xff, 0xff, 0xff, 0xff, 0xff, 0xff, 0xff, 0xff, 
    0x00, 0x00, 0x00, 0x00, 0x96, 0xfe, 0xff, 0xff, 0x04, 0x00, 0x00, 0x00, 0x4c, 0x01, 0x00, 0x00, 
    0x43, 0x4f, 0x50, 0x31, 0x01, 0x00, 0x10, 0x00, 0x08, 0x30, 0x00, 0x10, 0x00, 0x00, 0x06, 0x10, 
    0x05, 0x00, 0x00, 0x00, 0x05, 0x00, 0x00, 0x00, 0x05, 0x00, 0x00, 0x00, 0x02, 0x00, 0x4b, 0x00, 
    0x23, 0x01, 0x00, 0x00, 0x0f, 0x01, 0x01, 0x00, 0x00, 0x40, 0x00, 0x00, 0x50, 0x00, 0x00, 0x00, 
    0x01, 0x40, 0x00, 0x00, 0x00, 0x00, 0x00, 0x00, 0x02, 0x40, 0x00, 0x00, 0x00, 0x00, 0x00, 0x00, 
    0x03, 0x40, 0x00, 0x00, 0x00, 0x00, 0x00, 0x00, 0x0b, 0x01, 0x07, 0x00, 0x0c, 0x01, 0x07, 0x00, 
    0x0a, 0x01, 0x07, 0x00, 0x04, 0x01, 0x02, 0x00, 0x06, 0x40, 0x00, 0x00, 0x01, 0x00, 0x00, 0x00, 
    0x05, 0x40, 0x00, 0x00, 0x18, 0x00, 0x00, 0x00, 0x04, 0x40, 0x00, 0x00, 0x03, 0x00, 0x00, 0x00, 
    0x09, 0x01, 0xf5, 0xff, 0x05, 0x01, 0x01, 0x00, 0x07, 0x01, 0x00, 0x00, 0x00, 0x01, 0x00, 0x00, 
    0x01, 0x01, 0x00, 0x00, 0x03, 0x01, 0x00, 0x00, 0x02, 0x01, 0x00, 0x00, 0x1f, 0x01, 0x01, 0x00, 
    0x10, 0x40, 0x00, 0x00, 0x00, 0x00, 0x00, 0x00, 0x11, 0x40, 0x00, 0x00, 0x00, 0x00, 0x00, 0x00, 
    0x12, 0x40, 0x00, 0x00, 0x00, 0x00, 0x00, 0x00, 0x13, 0x40, 0x00, 0x00, 0x00, 0x00, 0x00, 0x00, 
    0x1b, 0x01, 0x05, 0x00, 0x1c, 0x01, 0x05, 0x00, 0x1a, 0x01, 0x05, 0x00, 0x12, 0x01, 0x05, 0x00, 
    0x11, 0x01, 0x05, 0x00, 0x13, 0x01, 0x01, 0x00, 0x16, 0x40, 0x00, 0x00, 0x01, 0x00, 0x00, 0x00, 
    0x15, 0x40, 0x00, 0x00, 0x0c, 0x00, 0x00, 0x00, 0x14, 0x40, 0x00, 0x00, 0x02, 0x00, 0x00, 0x00, 
    0x18, 0x01, 0xf9, 0xff, 0x14, 0x01, 0x01, 0x00, 0x21, 0x01, 0x02, 0x00, 0x20, 0x01, 0x02, 0x00, 
    0x22, 0x01, 0x04, 0x00, 0x28, 0x01, 0x00, 0x00, 0x20, 0x40, 0x00, 0x00, 0x40, 0x00, 0x00, 0x00, 
    0x21, 0x40, 0x00, 0x00, 0x80, 0x00, 0x00, 0x00, 0x29, 0x01, 0x00, 0x00, 0x22, 0x40, 0x00, 0x00, 
    0x20, 0x00, 0x00, 0x00, 0x23, 0x40, 0x00, 0x00, 0x20, 0x00, 0x00, 0x00, 0x25, 0x01, 0x00, 0x00, 
    0x26, 0x01, 0x80, 0xff, 0x27, 0x01, 0x7f, 0x00, 0x16, 0x01, 0x05, 0x00, 0x15, 0x01, 0x05, 0x00, 
    0x17, 0x01, 0x07, 0x00, 0x0d, 0x01, 0x0a, 0x00, 0x2d, 0x01, 0x1e, 0x00, 0x24, 0x01, 0x00, 0x00, 
    0x2f, 0x01, 0x00, 0x00, 0x02, 0x00, 0x00, 0x00, 0x00, 0x00, 0xff, 0xff, 0x00, 0x00, 0x00, 0x00, 
    0x00, 0x00, 0x00, 0x00, 0x04, 0x00, 0x06, 0x00, 0x04, 0x00, 0x00, 0x00, 0x00, 0x00, 0x06, 0x00, 
    0x08, 0x00, 0x04, 0x00, 0x06, 0x00, 0x00, 0x00, 0x04, 0x00, 0x00, 0x00, 0x00, 0x00, 0x00, 0x00, 
    0x00, 0x00, 0x00, 0x00, 0x01, 0x00, 0x00, 0x00, 0x10, 0x00, 0x00, 0x00, 0x0c, 0x00, 0x14, 0x00, 
    0x10, 0x00, 0x0c, 0x00, 0x08, 0x00, 0x04, 0x00, 0x0c, 0x00, 0x00, 0x00, 0x10, 0x00, 0x00, 0x00, 
    0x74, 0x00, 0x00, 0x00, 0x78, 0x00, 0x00, 0x00, 0x7c, 0x00, 0x00, 0x00, 0x01, 0x00, 0x00, 0x00, 
    0x1c, 0x00, 0x00, 0x00, 0x00, 0x00, 0x16, 0x00, 0x18, 0x00, 0x00, 0x00, 0x14, 0x00, 0x10, 0x00, 
    0x00, 0x00, 0x00, 0x00, 0x08, 0x00, 0x00, 0x00, 0x04, 0x00, 0x0c, 0x00, 0x16, 0x00, 0x00, 0x00, 
    0x14, 0x00, 0x00, 0x00, 0x14, 0x00, 0x00, 0x00, 0x18, 0x00, 0x00, 0x00, 0x18, 0x00, 0x00, 0x00, 
    0x1c, 0x00, 0x00, 0x00, 0x00, 0x00, 0x00, 0x00, 0x03, 0x00, 0x00, 0x00, 0x01, 0x04, 0x01, 0x00, 
    0x00, 0x00, 0x00, 0x00, 0x01, 0x00, 0x00, 0x00, 0x00, 0x00, 0x00, 0x00, 0x05, 0x00, 0x00, 0x00, 
    0x02, 0x00, 0x00, 0x00, 0x03, 0x00, 0x00, 0x00, 0x04, 0x00, 0x00, 0x00, 0x05, 0x00, 0x00, 0x00, 
    0x01, 0x00, 0x00, 0x00, 0x01, 0x00, 0x00, 0x00, 0x00, 0x00, 0x00, 0x00, 0x01, 0x00, 0x00, 0x00, 
    0x01, 0x00, 0x00, 0x00, 0x06, 0x00, 0x00, 0x00, 0x70, 0x01, 0x00, 0x00, 0x08, 0x01, 0x00, 0x00, 
    0xc8, 0x00, 0x00, 0x00, 0x84, 0x00, 0x00, 0x00, 0x4c, 0x00, 0x00, 0x00, 0x04, 0x00, 0x00, 0x00, 
    0xc8, 0xff, 0xff, 0xff, 0x0c, 0x00, 0x00, 0x00, 0x00, 0x00, 0x00, 0x03, 0x24, 0x00, 0x00, 0x00, 
    0x19, 0x00, 0x00, 0x00, 0x6d, 0x61, 0x69, 0x6e, 0x5f, 0x73, 0x70, 0x6c, 0x69, 0x74, 0x5f, 0x31, 
    0x5f, 0x73, 0x63, 0x72, 0x61, 0x74, 0x63, 0x68, 0x5f, 0x66, 0x61, 0x73, 0x74, 0x00, 0x00, 0x00, 
    0x01, 0x00, 0x00, 0x00, 0x10, 0x01, 0x00, 0x00, 0x0c, 0x00, 0x10, 0x00, 0x0c, 0x00, 0x0b, 0x00, 
    0x00, 0x00, 0x04, 0x00, 0x0c, 0x00, 0x00, 0x00, 0x0c, 0x00, 0x00, 0x00, 0x00, 0x00, 0x00, 0x03, 
    0x20, 0x00, 0x00, 0x00, 0x14, 0x00, 0x00, 0x00, 0x6d, 0x61, 0x69, 0x6e, 0x5f, 0x73, 0x70, 0x6c, 
    0x69, 0x74, 0x5f, 0x31, 0x5f, 0x73, 0x63, 0x72, 0x61, 0x74, 0x63, 0x68, 0x00, 0x00, 0x00, 0x00, 
    0x01, 0x00, 0x00, 0x00, 0x10, 0x01, 0x00, 0x00, 0xcc, 0xff, 0xff, 0xff, 0x10, 0x00, 0x00, 0x00, 
    0x03, 0x00, 0x00, 0x00, 0x00, 0x00, 0x00, 0x03, 0x1c, 0x00, 0x00, 0x00, 0x12, 0x00, 0x00, 0x00, 
    0x6d, 0x61, 0x69, 0x6e, 0x5f, 0x73, 0x70, 0x6c, 0x69, 0x74, 0x5f, 0x31, 0x5f, 0x66, 0x6c, 0x61, 
    0x73, 0x68, 0x00, 0x00, 0x01, 0x00, 0x00, 0x00, 0xc0, 0x00, 0x00, 0x00, 0x0c, 0x00, 0x14, 0x00, 
    0x10, 0x00, 0x0f, 0x00, 0x08, 0x00, 0x04, 0x00, 0x0c, 0x00, 0x00, 0x00, 0x10, 0x00, 0x00, 0x00, 
    0x02, 0x00, 0x00, 0x00, 0x00, 0x00, 0x00, 0x03, 0x24, 0x00, 0x00, 0x00, 0x1b, 0x00, 0x00, 0x00, 
    0x6d, 0x61, 0x69, 0x6e, 0x5f, 0x73, 0x70, 0x6c, 0x69, 0x74, 0x5f, 0x31, 0x5f, 0x63, 0x6f, 0x6d, 
    0x6d, 0x61, 0x6e, 0x64, 0x5f, 0x73, 0x74, 0x72, 0x65, 0x61, 0x6d, 0x00, 0x01, 0x00, 0x00, 0x00, 
    0x4c, 0x01, 0x00, 0x00, 0xaa, 0xff, 0xff, 0xff, 0x10, 0x00, 0x00, 0x00, 0x2c, 0x00, 0x00, 0x00, 
    0x00, 0x00, 0x00, 0x09, 0x30, 0x00, 0x00, 0x00, 0x9c, 0xff, 0xff, 0xff, 0x08, 0x00, 0x00, 0x00, 
    0x10, 0x00, 0x00, 0x00, 0x01, 0x00, 0x00, 0x00, 0xf5, 0xff, 0xff, 0xff, 0xff, 0xff, 0xff, 0xff, 
    0x01, 0x00, 0x00, 0x00, 0xbd, 0x30, 0x03, 0x3d, 0x07, 0x00, 0x00, 0x00, 0x69, 0x6e, 0x70, 0x75, 
    0x74, 0x5f, 0x31, 0x00, 0x04, 0x00, 0x00, 0x00, 0x01, 0x00, 0x00, 0x00, 0x08, 0x00, 0x00, 0x00, 
    0x08, 0x00, 0x00, 0x00, 0x03, 0x00, 0x00, 0x00, 0x00, 0x00, 0x0e, 0x00, 0x14, 0x00, 0x10, 0x00, 
    0x0f, 0x00, 0x00, 0x00, 0x08, 0x00, 0x04, 0x00, 0x0e, 0x00, 0x00, 0x00, 0x1c, 0x00, 0x00, 0x00, 
    0x38, 0x00, 0x00, 0x00, 0x00, 0x00, 0x00, 0x09, 0x40, 0x00, 0x00, 0x00, 0x0c, 0x00, 0x0c, 0x00, 
    0x00, 0x00, 0x00, 0x00, 0x08, 0x00, 0x04, 0x00, 0x0c, 0x00, 0x00, 0x00, 0x08, 0x00, 0x00, 0x00, 
    0x10, 0x00, 0x00, 0x00, 0x01, 0x00, 0x00, 0x00, 0xf9, 0xff, 0xff, 0xff, 0xff, 0xff, 0xff, 0xff, 
    0x01, 0x00, 0x00, 0x00, 0x92, 0x16, 0x01, 0x3d, 0x08, 0x00, 0x00, 0x00, 0x49, 0x64, 0x65, 0x6e, 
    0x74, 0x69, 0x74, 0x79, 0x00, 0x00, 0x00, 0x00, 0x04, 0x00, 0x00, 0x00, 0x01, 0x00, 0x00, 0x00, 
    0x06, 0x00, 0x00, 0x00, 0x06, 0x00, 0x00, 0x00, 0x02, 0x00, 0x00, 0x00, 0x0e, 0x00, 0x00, 0x00, 
    0x56, 0x65, 0x6c, 0x61, 0x20, 0x4f, 0x70, 0x74, 0x69, 0x6d, 0x69, 0x73, 0x65, 0x64, 0x00, 0x00, 
    0x01, 0x00, 0x00, 0x00, 0x10, 0x00, 0x00, 0x00, 0x0c, 0x00, 0x10, 0x00, 0x0f, 0x00, 0x04, 0x00, 
    0x00, 0x00, 0x08, 0x00, 0x0c, 0x00, 0x00, 0x00, 0x0c, 0x00, 0x00, 0x00, 0x20, 0x00, 0x00, 0x00, 
    0x00, 0x00, 0x00, 0x20, 0x07, 0x00, 0x00, 0x00, 0x65, 0x74, 0x68, 0x6f, 0x73, 0x2d, 0x75, 0x00, 
};

#endif /* CONV2D_MODEL_H */
